/* Copyright 2020 The TensorFlow Authors. All Rights Reserved.

Licensed under the Apache License, Version 2.0 (the "License");
you may not use this file except in compliance with the License.
You may obtain a copy of the License at

    http://www.apache.org/licenses/LICENSE-2.0

Unless required by applicable law or agreed to in writing, software
distributed under the License is distributed on an "AS IS" BASIS,
WITHOUT WARRANTIES OR CONDITIONS OF ANY KIND, either express or implied.
See the License for the specific language governing permissions and
limitations under the License.
==============================================================================*/

// Automatically created from a TensorFlow Lite flatbuffer using the command:
// xxd -i model.tflite > model.cc

// This is a standard TensorFlow Lite model file that has been converted into a
// C data array, so it can be easily compiled into a binary for devices that
// don't have a file system.

// See train/README.md for a full description of the creation process.

#include "tensorflow/lite/micro/examples/hello_world/model.h"

// Keep model aligned to 8 bytes to guarantee aligned 64-bit accesses.
alignas(8) const unsigned char g_model[] = {
  0x1c, 0x00, 0x00, 0x00, 0x54, 0x46, 0x4c, 0x33, 0x14, 0x00, 0x20, 0x00,
  0x1c, 0x00, 0x18, 0x00, 0x14, 0x00, 0x10, 0x00, 0x0c, 0x00, 0x00, 0x00,
  0x08, 0x00, 0x04, 0x00, 0x14, 0x00, 0x00, 0x00, 0x1c, 0x00, 0x00, 0x00,
  0x88, 0x00, 0x00, 0x00, 0xe0, 0x00, 0x00, 0x00, 0x4c, 0x07, 0x00, 0x00,
  0x5c, 0x07, 0x00, 0x00, 0xf8, 0x0e, 0x00, 0x00, 0x03, 0x00, 0x00, 0x00,
  0x01, 0x00, 0x00, 0x00, 0x04, 0x00, 0x00, 0x00, 0x62, 0xf8, 0xff, 0xff,
  0x0c, 0x00, 0x00, 0x00, 0x1c, 0x00, 0x00, 0x00, 0x38, 0x00, 0x00, 0x00,
  0x0f, 0x00, 0x00, 0x00, 0x73, 0x65, 0x72, 0x76, 0x69, 0x6e, 0x67, 0x5f,
  0x64, 0x65, 0x66, 0x61, 0x75, 0x6c, 0x74, 0x00, 0x01, 0x00, 0x00, 0x00,
  0x04, 0x00, 0x00, 0x00, 0x94, 0xff, 0xff, 0xff, 0x0b, 0x00, 0x00, 0x00,
  0x04, 0x00, 0x00, 0x00, 0x07, 0x00, 0x00, 0x00, 0x64, 0x65, 0x6e, 0x73,
  0x65, 0x5f, 0x35, 0x00, 0x01, 0x00, 0x00, 0x00, 0x04, 0x00, 0x00, 0x00,
  0x36, 0xf9, 0xff, 0xff, 0x04, 0x00, 0x00, 0x00, 0x0d, 0x00, 0x00, 0x00,
  0x64, 0x65, 0x6e, 0x73, 0x65, 0x5f, 0x33, 0x5f, 0x69, 0x6e, 0x70, 0x75,
  0x74, 0x00, 0x00, 0x00, 0x02, 0x00, 0x00, 0x00, 0x34, 0x00, 0x00, 0x00,
  0x04, 0x00, 0x00, 0x00, 0xdc, 0xff, 0xff, 0xff, 0x0e, 0x00, 0x00, 0x00,
  0x04, 0x00, 0x00, 0x00, 0x13, 0x00, 0x00, 0x00, 0x43, 0x4f, 0x4e, 0x56,
  0x45, 0x52, 0x53, 0x49, 0x4f, 0x4e, 0x5f, 0x4d, 0x45, 0x54, 0x41, 0x44,
  0x41, 0x54, 0x41, 0x00, 0x08, 0x00, 0x0c, 0x00, 0x08, 0x00, 0x04, 0x00,
  0x08, 0x00, 0x00, 0x00, 0x0d, 0x00, 0x00, 0x00, 0x04, 0x00, 0x00, 0x00,
  0x13, 0x00, 0x00, 0x00, 0x6d, 0x69, 0x6e, 0x5f, 0x72, 0x75, 0x6e, 0x74,
  0x69, 0x6d, 0x65, 0x5f, 0x76, 0x65, 0x72, 0x73, 0x69, 0x6f, 0x6e, 0x00,
  0x0f, 0x00, 0x00, 0x00, 0x68, 0x06, 0x00, 0x00, 0x60, 0x06, 0x00, 0x00,
  0x4c, 0x06, 0x00, 0x00, 0x14, 0x06, 0x00, 0x00, 0x84, 0x05, 0x00, 0x00,
  0x74, 0x01, 0x00, 0x00, 0xe4, 0x00, 0x00, 0x00, 0xb4, 0x00, 0x00, 0x00,
  0xac, 0x00, 0x00, 0x00, 0xa4, 0x00, 0x00, 0x00, 0x9c, 0x00, 0x00, 0x00,
  0x94, 0x00, 0x00, 0x00, 0x8c, 0x00, 0x00, 0x00, 0x6c, 0x00, 0x00, 0x00,
  0x04, 0x00, 0x00, 0x00, 0xee, 0xf9, 0xff, 0xff, 0x04, 0x00, 0x00, 0x00,
  0x58, 0x00, 0x00, 0x00, 0x0c, 0x00, 0x00, 0x00, 0x08, 0x00, 0x0e, 0x00,
  0x08, 0x00, 0x04, 0x00, 0x08, 0x00, 0x00, 0x00, 0x10, 0x00, 0x00, 0x00,
  0x28, 0x00, 0x00, 0x00, 0x00, 0x00, 0x06, 0x00, 0x08, 0x00, 0x04, 0x00,
  0x06, 0x00, 0x00, 0x00, 0x04, 0x00, 0x00, 0x00, 0x01, 0x00, 0x00, 0x00,
  0xeb, 0x03, 0x00, 0x00, 0x00, 0x00, 0x0a, 0x00, 0x10, 0x00, 0x0c, 0x00,
  0x08, 0x00, 0x04, 0x00, 0x0a, 0x00, 0x00, 0x00, 0x02, 0x00, 0x00, 0x00,
  0x02, 0x00, 0x00, 0x00, 0x04, 0x00, 0x00, 0x00, 0x06, 0x00, 0x00, 0x00,
  0x32, 0x2e, 0x31, 0x32, 0x2e, 0x30, 0x00, 0x00, 0x52, 0xfa, 0xff, 0xff,
  0x04, 0x00, 0x00, 0x00, 0x10, 0x00, 0x00, 0x00, 0x31, 0x2e, 0x31, 0x34,
  0x2e, 0x30, 0x00, 0x00, 0x00, 0x00, 0x00, 0x00, 0x00, 0x00, 0x00, 0x00,
  0xd4, 0xf2, 0xff, 0xff, 0xd8, 0xf2, 0xff, 0xff, 0xdc, 0xf2, 0xff, 0xff,
  0xe0, 0xf2, 0xff, 0xff, 0xe4, 0xf2, 0xff, 0xff, 0x82, 0xfa, 0xff, 0xff,
  0x04, 0x00, 0x00, 0x00, 0x20, 0x00, 0x00, 0x00, 0xfd, 0xfe, 0xfc, 0xb0,
  0xb9, 0xb5, 0xe7, 0x8f, 0xf7, 0xf3, 0x31, 0x81, 0xa9, 0x9b, 0x91, 0xce,
  0xd6, 0x94, 0xe4, 0xc9, 0xb0, 0x10, 0x01, 0x2f, 0x8e, 0x0b, 0x42, 0x38,
  0xbf, 0x9b, 0x8e, 0x82, 0xae, 0xfa, 0xff, 0xff, 0x04, 0x00, 0x00, 0x00,
  0x80, 0x00, 0x00, 0x00, 0x00, 0x00, 0x00, 0x00, 0x00, 0x00, 0x00, 0x00,
  0x27, 0x04, 0x00, 0x00, 0x00, 0x00, 0x00, 0x00, 0x00, 0x00, 0x00, 0x00,
  0x00, 0x00, 0x00, 0x00, 0x00, 0x00, 0x00, 0x00, 0x00, 0x00, 0x00, 0x00,
  0x00, 0x00, 0x00, 0x00, 0x9b, 0x07, 0x00, 0x00, 0x60, 0xe1, 0xff, 0xff,
  0x00, 0x00, 0x00, 0x00, 0x00, 0x00, 0x00, 0x00, 0x00, 0x00, 0x00, 0x00,
  0x00, 0x00, 0x00, 0x00, 0xb4, 0x24, 0x00, 0x00, 0x00, 0x00, 0x00, 0x00,
  0x00, 0x00, 0x00, 0x00, 0x00, 0x00, 0x00, 0x00, 0x00, 0x00, 0x00, 0x00,
  0x00, 0x00, 0x00, 0x00, 0x55, 0xef, 0xff, 0xff, 0x44, 0xff, 0xff, 0xff,
  0x75, 0xfc, 0xff, 0xff, 0x00, 0x00, 0x00, 0x00, 0xb3, 0xf4, 0xff, 0xff,
  0x5e, 0xff, 0xff, 0xff, 0xf7, 0xdd, 0xff, 0xff, 0x00, 0x00, 0x00, 0x00,
  0x00, 0x00, 0x00, 0x00, 0x00, 0x00, 0x00, 0x00, 0x00, 0x00, 0x00, 0x00,
  0x3a, 0xfb, 0xff, 0xff, 0x04, 0x00, 0x00, 0x00, 0x00, 0x04, 0x00, 0x00,
  0xf5, 0x0a, 0xf9, 0x13, 0x0b, 0x11, 0xfe, 0xff, 0xec, 0xf5, 0xfb, 0x14,
  0xf8, 0xef, 0xf6, 0xf0, 0xf9, 0xf4, 0x04, 0x04, 0xf8, 0x11, 0xf9, 0xf3,
  0xf4, 0x05, 0xfb, 0x04, 0xf1, 0x13, 0xf0, 0xe9, 0x10, 0xf4, 0x09, 0xf0,
  0xea, 0xfd, 0x13, 0x10, 0x03, 0xf5, 0xf8, 0x00, 0xea, 0xeb, 0x06, 0x02,
  0xff, 0xf5, 0xf7, 0x11, 0xec, 0x0c, 0x04, 0xec, 0xfd, 0xec, 0xec, 0xec,
  0xf0, 0xf2, 0x0c, 0xee, 0x10, 0x0f, 0x20, 0xeb, 0xeb, 0xf5, 0xed, 0x16,
  0x0f, 0x0a, 0x16, 0xf1, 0xf3, 0x05, 0x0f, 0x4a, 0x13, 0x0d, 0x0b, 0xff,
  0xfc, 0x06, 0xf6, 0xfa, 0xef, 0x05, 0x00, 0x2e, 0xfa, 0x0a, 0x16, 0xfd,
  0x0e, 0x01, 0xe1, 0x0d, 0xf7, 0x03, 0xfc, 0x08, 0x04, 0x18, 0x17, 0xfd,
  0x0f, 0x14, 0x12, 0x05, 0x13, 0xf7, 0x01, 0x0e, 0xf7, 0x18, 0xe2, 0xe3,
  0xfe, 0x12, 0xaa, 0xed, 0x0a, 0xea, 0x09, 0x04, 0x12, 0x0e, 0xfa, 0x01,
  0xfc, 0x0a, 0x09, 0xf5, 0xf6, 0x0d, 0xf9, 0x13, 0x0b, 0xf7, 0x06, 0xfc,
  0xf5, 0x07, 0xfd, 0xf0, 0x0e, 0x10, 0xe6, 0xe9, 0x15, 0x06, 0xa1, 0xfa,
  0xf7, 0x0a, 0xee, 0xfa, 0x0f, 0xf3, 0x03, 0xef, 0xfc, 0xf9, 0xf2, 0x00,
  0x00, 0xf6, 0xee, 0x16, 0xea, 0xf8, 0x00, 0xec, 0x09, 0xfb, 0x12, 0xf6,
  0x06, 0xec, 0xf6, 0xea, 0x07, 0xf1, 0xfe, 0x03, 0x10, 0x06, 0x11, 0x05,
  0xfd, 0xee, 0xfe, 0xf2, 0x10, 0xea, 0xf5, 0xf0, 0x00, 0xda, 0xf2, 0xf0,
  0x07, 0x16, 0xf8, 0x81, 0x06, 0xf8, 0xfe, 0xea, 0xec, 0x0c, 0x01, 0x1c,
  0x06, 0x1a, 0x09, 0xe4, 0x16, 0x06, 0xf3, 0x12, 0xef, 0x12, 0x0d, 0xff,
  0x01, 0xf9, 0x0d, 0xfb, 0xff, 0xeb, 0xe4, 0xf7, 0x02, 0xf8, 0x0e, 0xa4,
  0xfb, 0xf0, 0x00, 0x0e, 0x02, 0xfc, 0x10, 0x07, 0xf8, 0x0d, 0x04, 0xc3,
  0x02, 0xf0, 0xf0, 0xf1, 0x11, 0xee, 0x15, 0x03, 0x0d, 0x10, 0xfa, 0xf9,
  0xfa, 0x2f, 0xef, 0x0f, 0x16, 0x12, 0xf1, 0x97, 0x00, 0xfa, 0x0f, 0xf3,
  0xf5, 0xf0, 0x04, 0x18, 0xf4, 0x0e, 0x06, 0xd3, 0x0d, 0x0c, 0xfc, 0xf3,
  0x02, 0x0b, 0xfb, 0xed, 0x13, 0x15, 0xf3, 0xee, 0xfc, 0xf8, 0x07, 0xf7,
  0x0f, 0x10, 0x01, 0x10, 0x00, 0x0b, 0xf8, 0xec, 0xf2, 0xee, 0xfc, 0xc9,
  0xf6, 0x00, 0xa3, 0xf2, 0xfb, 0x10, 0xec, 0x11, 0xf8, 0xf7, 0x01, 0x05,
  0x12, 0xf5, 0x0c, 0x03, 0x06, 0xf2, 0xed, 0xfe, 0x04, 0xee, 0x04, 0xb5,
  0x05, 0x0c, 0x04, 0xf5, 0x03, 0x11, 0x01, 0xff, 0x15, 0x10, 0x0b, 0xc6,
  0xe9, 0x11, 0x0a, 0x01, 0xf1, 0xfa, 0x15, 0x02, 0xf9, 0xee, 0x02, 0xfc,
  0x15, 0x13, 0x03, 0xf4, 0x14, 0xf0, 0xfc, 0x71, 0xff, 0xf9, 0x02, 0x14,
  0x05, 0xf7, 0x01, 0x12, 0x06, 0x12, 0xfe, 0x1d, 0xfd, 0xea, 0xf3, 0x09,
  0x13, 0xf9, 0xfd, 0x14, 0xfb, 0xf9, 0x12, 0x02, 0x12, 0xba, 0x17, 0xf8,
  0x02, 0x05, 0xf3, 0xf6, 0xeb, 0x0d, 0xf6, 0xf1, 0x03, 0x0c, 0x07, 0x1a,
  0xfb, 0x0b, 0x18, 0x23, 0xf5, 0x09, 0x13, 0xfe, 0x0a, 0x0c, 0x13, 0xf2,
  0x13, 0xf5, 0xf2, 0xf9, 0x12, 0x09, 0x00, 0x05, 0xfa, 0x06, 0x09, 0xad,
  0x0b, 0xf8, 0xe9, 0xf8, 0x11, 0x0e, 0x03, 0x06, 0xfe, 0x0b, 0x08, 0xe9,
  0x09, 0xf2, 0xee, 0x11, 0xed, 0xf7, 0xfe, 0xfd, 0xff, 0x11, 0xf6, 0xf0,
  0xf9, 0x02, 0xff, 0xf0, 0xf4, 0xec, 0x0e, 0xb1, 0xec, 0x09, 0xf7, 0xef,
  0xf5, 0xf7, 0x09, 0xfb, 0xfb, 0x01, 0x0c, 0xd5, 0x0a, 0xff, 0x0f, 0xf6,
  0x10, 0xf2, 0xf6, 0x0c, 0x16, 0x13, 0x01, 0xfc, 0xf4, 0x0f, 0xfb, 0xfd,
  0x11, 0x16, 0xed, 0x1f, 0xf9, 0x04, 0x05, 0xfa, 0x0d, 0x12, 0xee, 0xea,
  0xea, 0x11, 0xc3, 0xe0, 0x04, 0xf1, 0xfd, 0x10, 0xed, 0xfb, 0x0d, 0x0d,
  0xf7, 0x0e, 0x07, 0xef, 0x06, 0x1f, 0xd6, 0xed, 0xee, 0x12, 0xef, 0xa0,
  0x0d, 0xf5, 0xf4, 0x06, 0x09, 0x16, 0x13, 0x02, 0x03, 0xfd, 0x16, 0xda,
  0xf1, 0x0f, 0xfd, 0xfd, 0x11, 0x13, 0xee, 0x0b, 0x0c, 0x09, 0x0b, 0x0b,
  0x13, 0xf2, 0xf1, 0xf1, 0xeb, 0x0c, 0x14, 0xf9, 0x13, 0xff, 0x0a, 0x15,
  0x10, 0xf5, 0xfc, 0xfe, 0x17, 0xea, 0x01, 0x10, 0x0b, 0x16, 0x0b, 0x07,
  0x0d, 0x06, 0xee, 0x11, 0x16, 0x13, 0xfb, 0x04, 0xf1, 0x10, 0x01, 0xf5,
  0x06, 0x04, 0x15, 0x0a, 0x03, 0x04, 0x04, 0xfe, 0xf8, 0x1c, 0xd9, 0xef,
  0xf7, 0x22, 0xd8, 0xe8, 0xf1, 0x04, 0xed, 0x10, 0xee, 0xeb, 0x0e, 0xfb,
  0x04, 0x06, 0x0f, 0xef, 0xf1, 0x0f, 0xfb, 0x15, 0xec, 0xf8, 0x0e, 0xec,
  0xf9, 0x03, 0xec, 0x01, 0x0a, 0xf9, 0x06, 0xee, 0x14, 0xef, 0xfb, 0xeb,
  0x13, 0xf2, 0xf1, 0xf4, 0x0f, 0x07, 0xdd, 0xf7, 0xf5, 0x0c, 0x0a, 0x0f,
  0xef, 0x1f, 0xfd, 0x0b, 0xeb, 0xef, 0x0b, 0x0e, 0x13, 0xf5, 0xef, 0xfe,
  0xf7, 0x0f, 0xda, 0xb5, 0xf9, 0x0a, 0xac, 0xf9, 0xf6, 0x16, 0x00, 0x14,
  0x07, 0xf6, 0x0c, 0x11, 0x10, 0xef, 0x14, 0xf6, 0x11, 0x03, 0x15, 0x08,
  0x01, 0xf9, 0xf9, 0x4a, 0x09, 0x0f, 0x06, 0x0b, 0xec, 0x0e, 0x1a, 0xf3,
  0x0f, 0x0d, 0x11, 0x0c, 0x0c, 0xf4, 0xfc, 0x0f, 0xec, 0xf7, 0x0b, 0xf1,
  0xf9, 0xf0, 0xf1, 0xfc, 0xfa, 0xec, 0xf0, 0xf1, 0x0d, 0xef, 0xed, 0x9b,
  0x0f, 0xfe, 0x02, 0x12, 0x12, 0x18, 0x04, 0x0a, 0x08, 0xf0, 0xf7, 0xf1,
  0x02, 0xfa, 0xf4, 0xfc, 0xf1, 0xf9, 0x04, 0x04, 0xf7, 0x0e, 0xf5, 0x02,
  0xed, 0xd4, 0xdc, 0xf4, 0x06, 0x11, 0xec, 0x9a, 0x00, 0x13, 0xf4, 0x08,
  0xec, 0x05, 0x14, 0xe7, 0x0a, 0x06, 0x00, 0xda, 0xfc, 0x02, 0x04, 0xf7,
  0xff, 0x0f, 0xec, 0x0c, 0xf6, 0x00, 0x05, 0x16, 0x00, 0x11, 0xf0, 0x04,
  0xf0, 0x09, 0xfe, 0x09, 0x00, 0xf7, 0xf3, 0xfd, 0xf3, 0xf8, 0xf6, 0xfe,
  0xed, 0xf8, 0xef, 0x07, 0xf4, 0xfe, 0xec, 0xf0, 0x08, 0x16, 0x10, 0x0d,
  0xfb, 0x15, 0xf2, 0x04, 0xff, 0x01, 0xf6, 0xfe, 0xfa, 0xf2, 0xfd, 0x5c,
  0x01, 0x10, 0xf1, 0xef, 0xea, 0x09, 0x11, 0x15, 0x0f, 0x01, 0xfd, 0x1d,
  0xfb, 0xf5, 0x0f, 0xfc, 0xf7, 0x08, 0xf3, 0xf8, 0x02, 0xf3, 0xe9, 0x10,
  0xf6, 0x0c, 0x03, 0x01, 0x05, 0x06, 0x15, 0x01, 0x12, 0x15, 0xe9, 0x12,
  0x02, 0xf8, 0x09, 0x00, 0x0a, 0xfc, 0xf0, 0xeb, 0xf9, 0x11, 0x11, 0xf1,
  0x13, 0xfa, 0xf8, 0xf7, 0xed, 0xfa, 0xf6, 0x00, 0xf0, 0xe8, 0xee, 0x05,
  0x0a, 0x13, 0x0d, 0x0d, 0x04, 0x03, 0xf4, 0x16, 0x05, 0xf6, 0xe6, 0x00,
  0x16, 0xf9, 0xeb, 0x01, 0xf4, 0x09, 0xf6, 0x10, 0x17, 0x15, 0xf3, 0xfb,
  0xed, 0x16, 0x10, 0xfe, 0xfa, 0x13, 0x10, 0xf1, 0xfe, 0xf7, 0xfe, 0x6a,
  0xef, 0x14, 0x11, 0x04, 0xeb, 0xf1, 0xf9, 0x0d, 0x17, 0x0c, 0xfc, 0x20,
  0x07, 0x12, 0xfe, 0x04, 0x17, 0xf4, 0xf1, 0x00, 0x0b, 0xea, 0x00, 0x15,
  0x14, 0xea, 0xee, 0x05, 0x05, 0x13, 0xec, 0x09, 0x08, 0xeb, 0x08, 0xf7,
  0xf3, 0xf3, 0x11, 0xf3, 0xf3, 0x0e, 0xfa, 0xf0, 0xeb, 0xf6, 0xee, 0xf9,
  0xf4, 0x0b, 0x0e, 0x12, 0x0c, 0x0d, 0xfb, 0xf6, 0x03, 0x04, 0xf1, 0x0f,
  0x0a, 0x0e, 0xf3, 0x96, 0x12, 0xfb, 0x0c, 0xf6, 0x15, 0xf9, 0x00, 0x08,
  0x0d, 0x0f, 0x16, 0xd7, 0xee, 0x0a, 0x10, 0x02, 0x14, 0xfb, 0xf2, 0x13,
  0x0a, 0xf2, 0x04, 0xf2, 0xed, 0xf6, 0x0b, 0x0c, 0xeb, 0x0b, 0x14, 0x0e,
  0x0c, 0x06, 0xf7, 0xf2, 0x13, 0xf5, 0xed, 0xed, 0x02, 0x01, 0xfa, 0xfd,
  0x01, 0x02, 0xf7, 0xf0, 0x46, 0xff, 0xff, 0xff, 0x04, 0x00, 0x00, 0x00,
  0x80, 0x00, 0x00, 0x00, 0x0d, 0xff, 0xff, 0xff, 0xb0, 0xfe, 0xff, 0xff,
  0xcb, 0xfe, 0xff, 0xff, 0xb5, 0x10, 0x00, 0x00, 0x82, 0x06, 0x00, 0x00,
  0x00, 0x00, 0x00, 0x00, 0x52, 0x1a, 0x00, 0x00, 0xa7, 0x10, 0x00, 0x00,
  0x00, 0x15, 0x00, 0x00, 0xcb, 0x00, 0x00, 0x00, 0xd9, 0x0b, 0x00, 0x00,
  0x2f, 0x01, 0x00, 0x00, 0xda, 0xd0, 0xff, 0xff, 0x3c, 0x13, 0x00, 0x00,
  0xff, 0x13, 0x00, 0x00, 0xd1, 0x07, 0x00, 0x00, 0x36, 0x12, 0x00, 0x00,
  0xd1, 0xfe, 0xff, 0xff, 0x4c, 0x08, 0x00, 0x00, 0x00, 0x00, 0x00, 0x00,
  0x80, 0x08, 0x00, 0x00, 0x03, 0x00, 0x00, 0x00, 0x31, 0x17, 0x00, 0x00,
  0x08, 0x13, 0x00, 0x00, 0x20, 0xfa, 0xff, 0xff, 0xb6, 0xfe, 0xff, 0xff,
  0x5e, 0xfe, 0xff, 0xff, 0x9b, 0xfc, 0xff, 0xff, 0x4e, 0xfb, 0xff, 0xff,
  0xeb, 0xfc, 0xff, 0xff, 0xd7, 0x19, 0x00, 0x00, 0xf6, 0xf9, 0xff, 0xff,
  0xd2, 0xff, 0xff, 0xff, 0x04, 0x00, 0x00, 0x00, 0x20, 0x00, 0x00, 0x00,
  0x0d, 0x09, 0x0b, 0xcd, 0xc7, 0x07, 0xdc, 0xf5, 0xec, 0xda, 0xff, 0x20,
  0x7f, 0xf3, 0xf5, 0xc6, 0xef, 0x19, 0xcd, 0x01, 0xd1, 0x12, 0xf2, 0x33,
  0x13, 0x12, 0x0e, 0x00, 0x07, 0x0b, 0xe9, 0x13, 0x00, 0x00, 0x06, 0x00,
  0x08, 0x00, 0x04, 0x00, 0x06, 0x00, 0x00, 0x00, 0x04, 0x00, 0x00, 0x00,
  0x04, 0x00, 0x00, 0x00, 0x59, 0x04, 0x00, 0x00, 0x7c, 0xf8, 0xff, 0xff,
  0x80, 0xf8, 0xff, 0xff, 0x0f, 0x00, 0x00, 0x00, 0x4d, 0x4c, 0x49, 0x52,
  0x20, 0x43, 0x6f, 0x6e, 0x76, 0x65, 0x72, 0x74, 0x65, 0x64, 0x2e, 0x00,
  0x01, 0x00, 0x00, 0x00, 0x14, 0x00, 0x00, 0x00, 0x00, 0x00, 0x0e, 0x00,
  0x18, 0x00, 0x14, 0x00, 0x10, 0x00, 0x0c, 0x00, 0x08, 0x00, 0x04, 0x00,
  0x0e, 0x00, 0x00, 0x00, 0x14, 0x00, 0x00, 0x00, 0x1c, 0x00, 0x00, 0x00,
  0x40, 0x01, 0x00, 0x00, 0x44, 0x01, 0x00, 0x00, 0x48, 0x01, 0x00, 0x00,
  0x04, 0x00, 0x00, 0x00, 0x6d, 0x61, 0x69, 0x6e, 0x00, 0x00, 0x00, 0x00,
  0x05, 0x00, 0x00, 0x00, 0x08, 0x01, 0x00, 0x00, 0xb8, 0x00, 0x00, 0x00,
  0x6c, 0x00, 0x00, 0x00, 0x34, 0x00, 0x00, 0x00, 0x10, 0x00, 0x00, 0x00,
  0x00, 0x00, 0x0a, 0x00, 0x10, 0x00, 0x0c, 0x00, 0x08, 0x00, 0x04, 0x00,
  0x0a, 0x00, 0x00, 0x00, 0x0c, 0x00, 0x00, 0x00, 0x10, 0x00, 0x00, 0x00,
  0x02, 0x00, 0x00, 0x00, 0x01, 0x00, 0x00, 0x00, 0x0b, 0x00, 0x00, 0x00,
  0x01, 0x00, 0x00, 0x00, 0x0a, 0x00, 0x00, 0x00, 0x92, 0xff, 0xff, 0xff,
  0x14, 0x00, 0x00, 0x00, 0x00, 0x00, 0x00, 0x08, 0x10, 0x00, 0x00, 0x00,
  0x14, 0x00, 0x00, 0x00, 0x01, 0x00, 0x00, 0x00, 0x30, 0xf9, 0xff, 0xff,
  0x01, 0x00, 0x00, 0x00, 0x0a, 0x00, 0x00, 0x00, 0x03, 0x00, 0x00, 0x00,
  0x09, 0x00, 0x00, 0x00, 0x02, 0x00, 0x00, 0x00, 0x01, 0x00, 0x00, 0x00,
  0xc6, 0xff, 0xff, 0xff, 0x14, 0x00, 0x00, 0x00, 0x00, 0x00, 0x00, 0x08,
  0x14, 0x00, 0x00, 0x00, 0x18, 0x00, 0x00, 0x00, 0x01, 0x00, 0x00, 0x00,
  0xb6, 0xff, 0xff, 0xff, 0x00, 0x00, 0x00, 0x01, 0x01, 0x00, 0x00, 0x00,
  0x09, 0x00, 0x00, 0x00, 0x03, 0x00, 0x00, 0x00, 0x08, 0x00, 0x00, 0x00,
  0x04, 0x00, 0x00, 0x00, 0x03, 0x00, 0x00, 0x00, 0x00, 0x00, 0x0e, 0x00,
  0x1a, 0x00, 0x14, 0x00, 0x10, 0x00, 0x0c, 0x00, 0x0b, 0x00, 0x04, 0x00,
  0x0e, 0x00, 0x00, 0x00, 0x1c, 0x00, 0x00, 0x00, 0x00, 0x00, 0x00, 0x08,
  0x1c, 0x00, 0x00, 0x00, 0x20, 0x00, 0x00, 0x00, 0x01, 0x00, 0x00, 0x00,
  0x00, 0x00, 0x06, 0x00, 0x08, 0x00, 0x07, 0x00, 0x06, 0x00, 0x00, 0x00,
  0x00, 0x00, 0x00, 0x01, 0x01, 0x00, 0x00, 0x00, 0x08, 0x00, 0x00, 0x00,
  0x03, 0x00, 0x00, 0x00, 0x07, 0x00, 0x00, 0x00, 0x06, 0x00, 0x00, 0x00,
  0x05, 0x00, 0x00, 0x00, 0x00, 0x00, 0x0a, 0x00, 0x0c, 0x00, 0x00, 0x00,
  0x08, 0x00, 0x04, 0x00, 0x0a, 0x00, 0x00, 0x00, 0x08, 0x00, 0x00, 0x00,
  0x0c, 0x00, 0x00, 0x00, 0x01, 0x00, 0x00, 0x00, 0x07, 0x00, 0x00, 0x00,
  0x01, 0x00, 0x00, 0x00, 0x00, 0x00, 0x00, 0x00, 0x01, 0x00, 0x00, 0x00,
  0x0b, 0x00, 0x00, 0x00, 0x01, 0x00, 0x00, 0x00, 0x00, 0x00, 0x00, 0x00,
  0x0c, 0x00, 0x00, 0x00, 0xc8, 0x05, 0x00, 0x00, 0x28, 0x05, 0x00, 0x00,
  0xa0, 0x04, 0x00, 0x00, 0x24, 0x04, 0x00, 0x00, 0xb8, 0x03, 0x00, 0x00,
  0x3c, 0x03, 0x00, 0x00, 0xd0, 0x02, 0x00, 0x00, 0x5c, 0x02, 0x00, 0x00,
  0x90, 0x01, 0x00, 0x00, 0xdc, 0x00, 0x00, 0x00, 0x60, 0x00, 0x00, 0x00,
  0x04, 0x00, 0x00, 0x00, 0x7e, 0xfa, 0xff, 0xff, 0x00, 0x00, 0x00, 0x01,
  0x14, 0x00, 0x00, 0x00, 0x1c, 0x00, 0x00, 0x00, 0x1c, 0x00, 0x00, 0x00,
  0x0c, 0x00, 0x00, 0x00, 0x34, 0x00, 0x00, 0x00, 0x02, 0x00, 0x00, 0x00,
  0xff, 0xff, 0xff, 0xff, 0x01, 0x00, 0x00, 0x00, 0x68, 0xfa, 0xff, 0xff,
  0x19, 0x00, 0x00, 0x00, 0x53, 0x74, 0x61, 0x74, 0x65, 0x66, 0x75, 0x6c,
  0x50, 0x61, 0x72, 0x74, 0x69, 0x74, 0x69, 0x6f, 0x6e, 0x65, 0x64, 0x43,
  0x61, 0x6c, 0x6c, 0x3a, 0x30, 0x00, 0x00, 0x00, 0x02, 0x00, 0x00, 0x00,
  0x01, 0x00, 0x00, 0x00, 0x01, 0x00, 0x00, 0x00, 0x26, 0xfe, 0xff, 0xff,
  0x00, 0x00, 0x00, 0x01, 0x18, 0x00, 0x00, 0x00, 0x20, 0x00, 0x00, 0x00,
  0x3c, 0x00, 0x00, 0x00, 0x0b, 0x00, 0x00, 0x00, 0x00, 0x00, 0x00, 0x09,
  0x50, 0x00, 0x00, 0x00, 0x02, 0x00, 0x00, 0x00, 0xff, 0xff, 0xff, 0xff,
  0x01, 0x00, 0x00, 0x00, 0x6c, 0xfb, 0xff, 0xff, 0x08, 0x00, 0x00, 0x00,
  0x10, 0x00, 0x00, 0x00, 0x01, 0x00, 0x00, 0x00, 0x00, 0x00, 0x00, 0x00,
  0x00, 0x00, 0x00, 0x00, 0x01, 0x00, 0x00, 0x00, 0x46, 0xbc, 0x02, 0x3c,
  0x1a, 0x00, 0x00, 0x00, 0x53, 0x74, 0x61, 0x74, 0x65, 0x66, 0x75, 0x6c,
  0x50, 0x61, 0x72, 0x74, 0x69, 0x74, 0x69, 0x6f, 0x6e, 0x65, 0x64, 0x43,
  0x61, 0x6c, 0x6c, 0x3a, 0x30, 0x31, 0x00, 0x00, 0x02, 0x00, 0x00, 0x00,
  0x01, 0x00, 0x00, 0x00, 0x01, 0x00, 0x00, 0x00, 0x9e, 0xfe, 0xff, 0xff,
  0x00, 0x00, 0x00, 0x01, 0x18, 0x00, 0x00, 0x00, 0x20, 0x00, 0x00, 0x00,
  0x3c, 0x00, 0x00, 0x00, 0x0a, 0x00, 0x00, 0x00, 0x00, 0x00, 0x00, 0x09,
  0x88, 0x00, 0x00, 0x00, 0x02, 0x00, 0x00, 0x00, 0xff, 0xff, 0xff, 0xff,
  0x20, 0x00, 0x00, 0x00, 0xe4, 0xfb, 0xff, 0xff, 0x08, 0x00, 0x00, 0x00,
  0x10, 0x00, 0x00, 0x00, 0x01, 0x00, 0x00, 0x00, 0x80, 0xff, 0xff, 0xff,
  0xff, 0xff, 0xff, 0xff, 0x01, 0x00, 0x00, 0x00, 0x91, 0xb2, 0xa2, 0x3b,
  0x52, 0x00, 0x00, 0x00, 0x73, 0x65, 0x71, 0x75, 0x65, 0x6e, 0x74, 0x69,
  0x61, 0x6c, 0x5f, 0x31, 0x2f, 0x64, 0x65, 0x6e, 0x73, 0x65, 0x5f, 0x34,
  0x2f, 0x4d, 0x61, 0x74, 0x4d, 0x75, 0x6c, 0x3b, 0x73, 0x65, 0x71, 0x75,
  0x65, 0x6e, 0x74, 0x69, 0x61, 0x6c, 0x5f, 0x31, 0x2f, 0x64, 0x65, 0x6e,
  0x73, 0x65, 0x5f, 0x34, 0x2f, 0x52, 0x65, 0x6c, 0x75, 0x3b, 0x73, 0x65,
  0x71, 0x75, 0x65, 0x6e, 0x74, 0x69, 0x61, 0x6c, 0x5f, 0x31, 0x2f, 0x64,
  0x65, 0x6e, 0x73, 0x65, 0x5f, 0x34, 0x2f, 0x42, 0x69, 0x61, 0x73, 0x41,
  0x64, 0x64, 0x00, 0x00, 0x02, 0x00, 0x00, 0x00, 0x01, 0x00, 0x00, 0x00,
  0x20, 0x00, 0x00, 0x00, 0x4e, 0xff, 0xff, 0xff, 0x00, 0x00, 0x00, 0x01,
  0x18, 0x00, 0x00, 0x00, 0x20, 0x00, 0x00, 0x00, 0x3c, 0x00, 0x00, 0x00,
  0x09, 0x00, 0x00, 0x00, 0x00, 0x00, 0x00, 0x09, 0x88, 0x00, 0x00, 0x00,
  0x02, 0x00, 0x00, 0x00, 0xff, 0xff, 0xff, 0xff, 0x20, 0x00, 0x00, 0x00,
  0x94, 0xfc, 0xff, 0xff, 0x08, 0x00, 0x00, 0x00, 0x10, 0x00, 0x00, 0x00,
  0x01, 0x00, 0x00, 0x00, 0x80, 0xff, 0xff, 0xff, 0xff, 0xff, 0xff, 0xff,
  0x01, 0x00, 0x00, 0x00, 0x8c, 0x96, 0xb1, 0x3b, 0x52, 0x00, 0x00, 0x00,
  0x73, 0x65, 0x71, 0x75, 0x65, 0x6e, 0x74, 0x69, 0x61, 0x6c, 0x5f, 0x31,
  0x2f, 0x64, 0x65, 0x6e, 0x73, 0x65, 0x5f, 0x33, 0x2f, 0x4d, 0x61, 0x74,
  0x4d, 0x75, 0x6c, 0x3b, 0x73, 0x65, 0x71, 0x75, 0x65, 0x6e, 0x74, 0x69,
  0x61, 0x6c, 0x5f, 0x31, 0x2f, 0x64, 0x65, 0x6e, 0x73, 0x65, 0x5f, 0x33,
  0x2f, 0x52, 0x65, 0x6c, 0x75, 0x3b, 0x73, 0x65, 0x71, 0x75, 0x65, 0x6e,
  0x74, 0x69, 0x61, 0x6c, 0x5f, 0x31, 0x2f, 0x64, 0x65, 0x6e, 0x73, 0x65,
  0x5f, 0x33, 0x2f, 0x42, 0x69, 0x61, 0x73, 0x41, 0x64, 0x64, 0x00, 0x00,
  0x02, 0x00, 0x00, 0x00, 0x01, 0x00, 0x00, 0x00, 0x20, 0x00, 0x00, 0x00,
  0x00, 0x00, 0x16, 0x00, 0x20, 0x00, 0x1c, 0x00, 0x1b, 0x00, 0x14, 0x00,
  0x10, 0x00, 0x0c, 0x00, 0x00, 0x00, 0x00, 0x00, 0x08, 0x00, 0x07, 0x00,
  0x16, 0x00, 0x00, 0x00, 0x00, 0x00, 0x00, 0x01, 0x18, 0x00, 0x00, 0x00,
  0x20, 0x00, 0x00, 0x00, 0x40, 0x00, 0x00, 0x00, 0x08, 0x00, 0x00, 0x00,
  0x00, 0x00, 0x00, 0x09, 0x48, 0x00, 0x00, 0x00, 0x02, 0x00, 0x00, 0x00,
  0xff, 0xff, 0xff, 0xff, 0x01, 0x00, 0x00, 0x00, 0x5c, 0xfd, 0xff, 0xff,
  0x08, 0x00, 0x00, 0x00, 0x14, 0x00, 0x00, 0x00, 0x01, 0x00, 0x00, 0x00,
  0x80, 0xff, 0xff, 0xff, 0xff, 0xff, 0xff, 0xff, 0x00, 0x00, 0x00, 0x00,
  0x01, 0x00, 0x00, 0x00, 0x08, 0x81, 0xc9, 0x3c, 0x0c, 0x00, 0x00, 0x00,
  0x74, 0x66, 0x6c, 0x2e, 0x71, 0x75, 0x61, 0x6e, 0x74, 0x69, 0x7a, 0x65,
  0x00, 0x00, 0x00, 0x00, 0x02, 0x00, 0x00, 0x00, 0x01, 0x00, 0x00, 0x00,
  0x01, 0x00, 0x00, 0x00, 0xd2, 0xfd, 0xff, 0xff, 0x00, 0x00, 0x00, 0x01,
  0x14, 0x00, 0x00, 0x00, 0x30, 0x00, 0x00, 0x00, 0x07, 0x00, 0x00, 0x00,
  0x00, 0x00, 0x00, 0x09, 0x44, 0x00, 0x00, 0x00, 0xbc, 0xfd, 0xff, 0xff,
  0x08, 0x00, 0x00, 0x00, 0x10, 0x00, 0x00, 0x00, 0x01, 0x00, 0x00, 0x00,
  0x00, 0x00, 0x00, 0x00, 0x00, 0x00, 0x00, 0x00, 0x01, 0x00, 0x00, 0x00,
  0x60, 0x48, 0x5b, 0x3b, 0x1b, 0x00, 0x00, 0x00, 0x73, 0x65, 0x71, 0x75,
  0x65, 0x6e, 0x74, 0x69, 0x61, 0x6c, 0x5f, 0x31, 0x2f, 0x64, 0x65, 0x6e,
  0x73, 0x65, 0x5f, 0x33, 0x2f, 0x4d, 0x61, 0x74, 0x4d, 0x75, 0x6c, 0x00,
  0x02, 0x00, 0x00, 0x00, 0x20, 0x00, 0x00, 0x00, 0x01, 0x00, 0x00, 0x00,
  0x3a, 0xfe, 0xff, 0xff, 0x00, 0x00, 0x00, 0x01, 0x14, 0x00, 0x00, 0x00,
  0x34, 0x00, 0x00, 0x00, 0x06, 0x00, 0x00, 0x00, 0x00, 0x00, 0x00, 0x02,
  0x58, 0x00, 0x00, 0x00, 0x24, 0xfe, 0xff, 0xff, 0x08, 0x00, 0x00, 0x00,
  0x14, 0x00, 0x00, 0x00, 0x01, 0x00, 0x00, 0x00, 0x00, 0x00, 0x00, 0x00,
  0x00, 0x00, 0x00, 0x00, 0x00, 0x00, 0x00, 0x00, 0x01, 0x00, 0x00, 0x00,
  0x5a, 0x9a, 0xac, 0x38, 0x2b, 0x00, 0x00, 0x00, 0x73, 0x65, 0x71, 0x75,
  0x65, 0x6e, 0x74, 0x69, 0x61, 0x6c, 0x5f, 0x31, 0x2f, 0x64, 0x65, 0x6e,
  0x73, 0x65, 0x5f, 0x33, 0x2f, 0x42, 0x69, 0x61, 0x73, 0x41, 0x64, 0x64,
  0x2f, 0x52, 0x65, 0x61, 0x64, 0x56, 0x61, 0x72, 0x69, 0x61, 0x62, 0x6c,
  0x65, 0x4f, 0x70, 0x00, 0x01, 0x00, 0x00, 0x00, 0x20, 0x00, 0x00, 0x00,
  0xb2, 0xfe, 0xff, 0xff, 0x00, 0x00, 0x00, 0x01, 0x14, 0x00, 0x00, 0x00,
  0x30, 0x00, 0x00, 0x00, 0x05, 0x00, 0x00, 0x00, 0x00, 0x00, 0x00, 0x09,
  0x44, 0x00, 0x00, 0x00, 0x9c, 0xfe, 0xff, 0xff, 0x08, 0x00, 0x00, 0x00,
  0x10, 0x00, 0x00, 0x00, 0x01, 0x00, 0x00, 0x00, 0x00, 0x00, 0x00, 0x00,
  0x00, 0x00, 0x00, 0x00, 0x01, 0x00, 0x00, 0x00, 0xe0, 0x4b, 0x5d, 0x3c,
  0x1b, 0x00, 0x00, 0x00, 0x73, 0x65, 0x71, 0x75, 0x65, 0x6e, 0x74, 0x69,
  0x61, 0x6c, 0x5f, 0x31, 0x2f, 0x64, 0x65, 0x6e, 0x73, 0x65, 0x5f, 0x34,
  0x2f, 0x4d, 0x61, 0x74, 0x4d, 0x75, 0x6c, 0x00, 0x02, 0x00, 0x00, 0x00,
  0x20, 0x00, 0x00, 0x00, 0x20, 0x00, 0x00, 0x00, 0x1a, 0xff, 0xff, 0xff,
  0x00, 0x00, 0x00, 0x01, 0x14, 0x00, 0x00, 0x00, 0x34, 0x00, 0x00, 0x00,
  0x04, 0x00, 0x00, 0x00, 0x00, 0x00, 0x00, 0x02, 0x58, 0x00, 0x00, 0x00,
  0x04, 0xff, 0xff, 0xff, 0x08, 0x00, 0x00, 0x00, 0x14, 0x00, 0x00, 0x00,
  0x01, 0x00, 0x00, 0x00, 0x00, 0x00, 0x00, 0x00, 0x00, 0x00, 0x00, 0x00,
  0x00, 0x00, 0x00, 0x00, 0x01, 0x00, 0x00, 0x00, 0x99, 0x83, 0x99, 0x38,
  0x2b, 0x00, 0x00, 0x00, 0x73, 0x65, 0x71, 0x75, 0x65, 0x6e, 0x74, 0x69,
  0x61, 0x6c, 0x5f, 0x31, 0x2f, 0x64, 0x65, 0x6e, 0x73, 0x65, 0x5f, 0x34,
  0x2f, 0x42, 0x69, 0x61, 0x73, 0x41, 0x64, 0x64, 0x2f, 0x52, 0x65, 0x61,
  0x64, 0x56, 0x61, 0x72, 0x69, 0x61, 0x62, 0x6c, 0x65, 0x4f, 0x70, 0x00,
  0x01, 0x00, 0x00, 0x00, 0x20, 0x00, 0x00, 0x00, 0x92, 0xff, 0xff, 0xff,
  0x00, 0x00, 0x00, 0x01, 0x14, 0x00, 0x00, 0x00, 0x34, 0x00, 0x00, 0x00,
  0x03, 0x00, 0x00, 0x00, 0x00, 0x00, 0x00, 0x09, 0x48, 0x00, 0x00, 0x00,
  0x7c, 0xff, 0xff, 0xff, 0x08, 0x00, 0x00, 0x00, 0x14, 0x00, 0x00, 0x00,
  0x01, 0x00, 0x00, 0x00, 0x00, 0x00, 0x00, 0x00, 0x00, 0x00, 0x00, 0x00,
  0x00, 0x00, 0x00, 0x00, 0x01, 0x00, 0x00, 0x00, 0xae, 0x16, 0x83, 0x3c,
  0x1b, 0x00, 0x00, 0x00, 0x73, 0x65, 0x71, 0x75, 0x65, 0x6e, 0x74, 0x69,
  0x61, 0x6c, 0x5f, 0x31, 0x2f, 0x64, 0x65, 0x6e, 0x73, 0x65, 0x5f, 0x35,
  0x2f, 0x4d, 0x61, 0x74, 0x4d, 0x75, 0x6c, 0x00, 0x02, 0x00, 0x00, 0x00,
  0x01, 0x00, 0x00, 0x00, 0x20, 0x00, 0x00, 0x00, 0x00, 0x00, 0x16, 0x00,
  0x1c, 0x00, 0x18, 0x00, 0x17, 0x00, 0x10, 0x00, 0x0c, 0x00, 0x08, 0x00,
  0x00, 0x00, 0x00, 0x00, 0x00, 0x00, 0x07, 0x00, 0x16, 0x00, 0x00, 0x00,
  0x00, 0x00, 0x00, 0x01, 0x20, 0x00, 0x00, 0x00, 0x40, 0x00, 0x00, 0x00,
  0x02, 0x00, 0x00, 0x00, 0x00, 0x00, 0x00, 0x02, 0x64, 0x00, 0x00, 0x00,
  0x0c, 0x00, 0x0c, 0x00, 0x00, 0x00, 0x00, 0x00, 0x08, 0x00, 0x04, 0x00,
  0x0c, 0x00, 0x00, 0x00, 0x08, 0x00, 0x00, 0x00, 0x14, 0x00, 0x00, 0x00,
  0x01, 0x00, 0x00, 0x00, 0x00, 0x00, 0x00, 0x00, 0x00, 0x00, 0x00, 0x00,
  0x00, 0x00, 0x00, 0x00, 0x01, 0x00, 0x00, 0x00, 0x94, 0x9f, 0xa6, 0x38,
  0x2b, 0x00, 0x00, 0x00, 0x73, 0x65, 0x71, 0x75, 0x65, 0x6e, 0x74, 0x69,
  0x61, 0x6c, 0x5f, 0x31, 0x2f, 0x64, 0x65, 0x6e, 0x73, 0x65, 0x5f, 0x35,
  0x2f, 0x42, 0x69, 0x61, 0x73, 0x41, 0x64, 0x64, 0x2f, 0x52, 0x65, 0x61,
  0x64, 0x56, 0x61, 0x72, 0x69, 0x61, 0x62, 0x6c, 0x65, 0x4f, 0x70, 0x00,
  0x01, 0x00, 0x00, 0x00, 0x01, 0x00, 0x00, 0x00, 0x00, 0x00, 0x16, 0x00,
  0x1c, 0x00, 0x18, 0x00, 0x00, 0x00, 0x14, 0x00, 0x10, 0x00, 0x0c, 0x00,
  0x00, 0x00, 0x00, 0x00, 0x08, 0x00, 0x07, 0x00, 0x16, 0x00, 0x00, 0x00,
  0x00, 0x00, 0x00, 0x01, 0x14, 0x00, 0x00, 0x00, 0x20, 0x00, 0x00, 0x00,
  0x20, 0x00, 0x00, 0x00, 0x01, 0x00, 0x00, 0x00, 0x3c, 0x00, 0x00, 0x00,
  0x02, 0x00, 0x00, 0x00, 0xff, 0xff, 0xff, 0xff, 0x01, 0x00, 0x00, 0x00,
  0x04, 0x00, 0x04, 0x00, 0x04, 0x00, 0x00, 0x00, 0x1f, 0x00, 0x00, 0x00,
  0x73, 0x65, 0x72, 0x76, 0x69, 0x6e, 0x67, 0x5f, 0x64, 0x65, 0x66, 0x61,
  0x75, 0x6c, 0x74, 0x5f, 0x64, 0x65, 0x6e, 0x73, 0x65, 0x5f, 0x33, 0x5f,
  0x69, 0x6e, 0x70, 0x75, 0x74, 0x3a, 0x30, 0x00, 0x02, 0x00, 0x00, 0x00,
  0x01, 0x00, 0x00, 0x00, 0x01, 0x00, 0x00, 0x00, 0x03, 0x00, 0x00, 0x00,
  0x44, 0x00, 0x00, 0x00, 0x24, 0x00, 0x00, 0x00, 0x04, 0x00, 0x00, 0x00,
  0xf0, 0xff, 0xff, 0xff, 0x06, 0x00, 0x00, 0x00, 0x02, 0x00, 0x00, 0x00,
  0x00, 0x00, 0x00, 0x06, 0x0c, 0x00, 0x10, 0x00, 0x0f, 0x00, 0x00, 0x00,
  0x08, 0x00, 0x04, 0x00, 0x0c, 0x00, 0x00, 0x00, 0x09, 0x00, 0x00, 0x00,
  0x04, 0x00, 0x00, 0x00, 0x00, 0x00, 0x00, 0x09, 0x0c, 0x00, 0x0c, 0x00,
  0x0b, 0x00, 0x00, 0x00, 0x00, 0x00, 0x04, 0x00, 0x0c, 0x00, 0x00, 0x00,
  0x72, 0x00, 0x00, 0x00, 0x00, 0x00, 0x00, 0x72
};
const int g_model_len = 3968;
